{
  "version": "1.0",
  "truncation": null,
  "padding": null,
  "added_tokens": [
    {
      "id": 0,
      "content": "<BOS>",
      "single_word": false,
      "lstrip": false,
      "rstrip": false,
      "normalized": false,
      "special": true
    },
    {
      "id": 1,
      "content": "<EOS>",
      "single_word": false,
      "lstrip": false,
      "rstrip": false,
      "normalized": false,
      "special": true
    },
    {
      "id": 2,
      "content": "<PAD>",
      "single_word": false,
      "lstrip": false,
      "rstrip": false,
      "normalized": false,
      "special": true
    },
    {
      "id": 3,
      "content": "<UNK>",
      "single_word": false,
      "lstrip": false,
      "rstrip": false,
      "normalized": false,
      "special": true
    }
  ],
  "normalizer": null,
  "pre_tokenizer": {
    "type": "ByteLevel",
    "add_prefix_space": false,
    "trim_offsets": true,
    "use_regex": true
  },
  "post_processor": null,
  "decoder": {
    "type": "ByteLevel",
    "add_prefix_space": true,
    "trim_offsets": true,
    "use_regex": true
  },
  "model": {
    "type": "BPE",
    "dropout": null,
    "unk_token": "<UNK>",
    "continuing_subword_prefix": null,
    "end_of_word_suffix": null,
    "fuse_unk": false,
    "byte_fallback": false,
    "ignore_merges": false,
    "vocab": {
      "<BOS>": 0,
      "<EOS>": 1,
      "<PAD>": 2,
      "<UNK>": 3,
      "!": 4,
      "\"": 5,
      "#": 6,
      "$": 7,
      "%": 8,
      "&": 9,
      "'": 10,
      "(": 11,
      ")": 12,
      "*": 13,
      "+": 14,
      ",": 15,
      "-": 16,
      ".": 17,
      "/": 18,
      "0": 19,
      "1": 20,
      "2": 21,
      "3": 22,
      "4": 23,
      "5": 24,
      "6": 25,
      "7": 26,
      "8": 27,
      "9": 28,
      ":": 29,
      ";": 30,
      "<": 31,
      "=": 32,
      ">": 33,
      "?": 34,
      "@": 35,
      "A": 36,
      "B": 37,
      "C": 38,
      "D": 39,
      "E": 40,
      "F": 41,
      "G": 42,
      "H": 43,
      "I": 44,
      "J": 45,
      "K": 46,
      "L": 47,
      "M": 48,
      "N": 49,
      "O": 50,
      "P": 51,
      "Q": 52,
      "R": 53,
      "S": 54,
      "T": 55,
      "U": 56,
      "V": 57,
      "W": 58,
      "X": 59,
      "Y": 60,
      "Z": 61,
      "[": 62,
      "\\": 63,
      "]": 64,
      "^": 65,
      "_": 66,
      "`": 67,
      "a": 68,
      "b": 69,
      "c": 70,
      "d": 71,
      "e": 72,
      "f": 73,
      "g": 74,
      "h": 75,
      "i": 76,
      "j": 77,
      "k": 78,
      "l": 79,
      "m": 80,
      "n": 81,
      "o": 82,
      "p": 83,
      "q": 84,
      "r": 85,
      "s": 86,
      "t": 87,
      "u": 88,
      "v": 89,
      "w": 90,
      "x": 91,
      "y": 92,
      "z": 93,
      "{": 94,
      "|": 95,
      "}": 96,
      "~": 97,
      "¡": 98,
      "¢": 99,
      "£": 100,
      "¤": 101,
      "¥": 102,
      "¦": 103,
      "§": 104,
      "¨": 105,
      "©": 106,
      "ª": 107,
      "«": 108,
      "¬": 109,
      "®": 110,
      "¯": 111,
      "°": 112,
      "±": 113,
      "²": 114,
      "³": 115,
      "´": 116,
      "µ": 117,
      "¶": 118,
      "·": 119,
      "¸": 120,
      "¹": 121,
      "º": 122,
      "»": 123,
      "¼": 124,
      "½": 125,
      "¾": 126,
      "¿": 127,
      "À": 128,
      "Á": 129,
      "Â": 130,
      "Ã": 131,
      "Ä": 132,
      "Å": 133,
      "Æ": 134,
      "Ç": 135,
      "È": 136,
      "É": 137,
      "Ê": 138,
      "Ë": 139,
      "Ì": 140,
      "Í": 141,
      "Î": 142,
      "Ï": 143,
      "Ð": 144,
      "Ñ": 145,
      "Ò": 146,
      "Ó": 147,
      "Ô": 148,
      "Õ": 149,
      "Ö": 150,
      "×": 151,
      "Ø": 152,
      "Ù": 153,
      "Ú": 154,
      "Û": 155,
      "Ü": 156,
      "Ý": 157,
      "Þ": 158,
      "ß": 159,
      "à": 160,
      "á": 161,
      "â": 162,
      "ã": 163,
      "ä": 164,
      "å": 165,
      "æ": 166,
      "ç": 167,
      "è": 168,
      "é": 169,
      "ê": 170,
      "ë": 171,
      "ì": 172,
      "í": 173,
      "î": 174,
      "ï": 175,
      "ð": 176,
      "ñ": 177,
      "ò": 178,
      "ó": 179,
      "ô": 180,
      "õ": 181,
      "ö": 182,
      "÷": 183,
      "ø": 184,
      "ù": 185,
      "ú": 186,
      "û": 187,
      "ü": 188,
      "ý": 189,
      "þ": 190,
      "ÿ": 191,
      "Ā": 192,
      "ā": 193,
      "Ă": 194,
      "ă": 195,
      "Ą": 196,
      "ą": 197,
      "Ć": 198,
      "ć": 199,
      "Ĉ": 200,
      "ĉ": 201,
      "Ċ": 202,
      "ċ": 203,
      "Č": 204,
      "č": 205,
      "Ď": 206,
      "ď": 207,
      "Đ": 208,
      "đ": 209,
      "Ē": 210,
      "ē": 211,
      "Ĕ": 212,
      "ĕ": 213,
      "Ė": 214,
      "ė": 215,
      "Ę": 216,
      "ę": 217,
      "Ě": 218,
      "ě": 219,
      "Ĝ": 220,
      "ĝ": 221,
      "Ğ": 222,
      "ğ": 223,
      "Ġ": 224,
      "ġ": 225,
      "Ģ": 226,
      "ģ": 227,
      "Ĥ": 228,
      "ĥ": 229,
      "Ħ": 230,
      "ħ": 231,
      "Ĩ": 232,
      "ĩ": 233,
      "Ī": 234,
      "ī": 235,
      "Ĭ": 236,
      "ĭ": 237,
      "Į": 238,
      "į": 239,
      "İ": 240,
      "ı": 241,
      "Ĳ": 242,
      "ĳ": 243,
      "Ĵ": 244,
      "ĵ": 245,
      "Ķ": 246,
      "ķ": 247,
      "ĸ": 248,
      "Ĺ": 249,
      "ĺ": 250,
      "Ļ": 251,
      "ļ": 252,
      "Ľ": 253,
      "ľ": 254,
      "Ŀ": 255,
      "ŀ": 256,
      "Ł": 257,
      "ł": 258,
      "Ń": 259,
      "à®": 260,
      "à¯": 261,
      "à¯į": 262,
      "Ġà®": 263,
      "à¯ģ": 264,
      "à®¿": 265,
      "à®ķ": 266,
      "à®¤": 267,
      "an": 268,
      "à®©": 269,
      "à®ª": 270,
      "à®²": 271,
      "à®Ł": 272,
      "re": 273,
      "à¯Ī": 274,
      "à®°": 275,
      "Ġp": 276,
      "à®±": 277,
      "Ġi": 278,
      "na": 279,
      "à®¾": 280,
      "à®®": 281,
      "à®¯": 282,
      "Ġs": 283,
      "at": 284,
      "on": 285,
      "Ġe": 286,
      "à®³": 287,
      "Ġà®İ": 288,
      "Ġpan": 289,
      "or": 290,
      "Ġa": 291,
      "à®µ": 292,
      "Ġc": 293,
      "th": 294,
      "Ġà®ª": 295,
      "in": 296,
      "Ġà®İà®©": 297,
      "de": 298,
      "es": 299,
      "se": 300,
      "Ġre": 301,
      "Ġà®®": 302,
      "la": 303,
      "le": 304,
      "nt": 305,
      "am": 306,
      "à®ķà®³": 307,
      "ct": 308,
      "Ġm": 309,
      "Ġà®¤": 310,
      "Ġis": 311,
      "Ġf": 312,
      "à®£": 313,
      "à¯į.": 314,
      "er": 315,
      "Ġna": 316,
      "à®ļ": 317,
      "à¯Ĩ": 318,
      "Ġst": 319,
      "Ġpann": 320,
      "Ġco": 321,
      "ag": 322,
      "Ġw": 323,
      "ar": 324,
      "Ġd": 325,
      "Ġà®ĩ": 326,
      "Ġex": 327,
      "ing": 328,
      "ra": 329,
      "Ġt": 330,
      "Ġan": 331,
      "Ġth": 332,
      "à¯Ĭ": 333,
      "Ġà®µ": 334,
      "Ġà®ļ": 335,
      "ru": 336,
      "um": 337,
      "Ġpanna": 338,
      "al": 339,
      "hat": 340,
      "ion": 341,
      "yth": 342,
      "Ġv": 343,
      "Ġin": 344,
      "Pyth": 345,
      "dh": 346,
      "me": 347,
      "ore": 348,
      "ri": 349,
      "ro": 350,
      "Ġu": 351,
      "à®Ļ": 352,
      "Python": 353,
      "ut": 354,
      "Ġl": 355,
      "What": 356,
      "ai": 357,
      "à¯ĩ": 358,
      "Ġà®ħ": 359,
      "à®ªà®Ł": 360,
      "Ġthe": 361,
      "dhu": 362,
      "oo": 363,
      "à®´": 364,
      "Ġà®ī": 365,
      "Ġà®ķ": 366,
      "à®¯à®²": 367,
      "ate": 368,
      "su": 369,
      "ĠA": 370,
      "ĠI": 371,
      "Ġb": 372,
      "Ġh": 373,
      "Ġor": 374,
      "ĠPython": 375,
      "à®¨": 376,
      "à¯Ĥ": 377,
      "Ġen": 378,
      "Ġà®ªà®ķ": 379,
      "Ġexam": 380,
      "Ġuse": 381,
      "ab": 382,
      "are": 383,
      "di": 384,
      "is": 385,
      "à®°à®²": 386,
      "Ġcode": 387,
      "Pri": 388,
      "ku": 389,
      "ude": 390,
      "yan": 391,
      "Ġ\"": 392,
      "Ġ1": 393,
      "Ġ=": 394,
      "à¯ģ.": 395,
      "Ġit": 396,
      "Ġaag": 397,
      "Ġpannu": 398,
      "age": 399,
      "Ġand": 400,
      "Ġenna": 401,
      "Priyan": 402,
      "udent": 403,
      "aa": 404,
      "as": 405,
      "ck": 406,
      "of": 407,
      "ode": 408,
      "pla": 409,
      "yo": 410,
      "à¯ĭ": 411,
      "Ġà®¨": 412,
      "à®ªà®¤": 413,
      "cti": 414,
      "ction": 415,
      "Ġfor": 416,
      "Ġstudent": 417,
      "alu": 418,
      "plain": 419,
      "ce": 420,
      "ed": 421,
      "ple": 422,
      "rr": 423,
      "Ġn": 424,
      "ang": 425,
      "Ġif": 426,
      "ont": 427,
      "Ġà®®à®¤": 428,
      "laam": 429,
      "Ġstore": 430,
      "Ġcol": 431,
      "Ġdat": 432,
      "Ġà®ĩà®²": 433,
      "Ġvalu": 434,
      "rom": 435,
      "ist": 436,
      "rror": 437,
      "\"]": 438,
      "CS": 439,
      "HT": 440,
      "ML": 441,
      "PI": 442,
      "[\"": 443,
      "ase": 444,
      "core": 445,
      "ding": 446,
      "hare": 447,
      "kku": 448,
      "lo": 449,
      "lt": 450,
      "lu": 451,
      "ona": 452,
      "pe": 453,
      "pp": 454,
      "Ġyo": 455,
      "à¯Ģ": 456,
      "Ġà®Ĵ": 457,
      "name": 458,
      "Ġscore": 459,
      "Ġshare": 460,
      "one": 461,
      "Ġerror": 462,
      "ord": 463,
      "à®µà®¤": 464,
      "à®µà®°": 465,
      "Ġch": 466,
      "Ġcan": 467,
      "Ġà®ªà®¯": 468,
      "Ġresu": 469,
      "Ġpannum": 470,
      "Ġdi": 471,
      "Ġdo": 472,
      "Ġexplain": 473,
      "rue": 474,
      "Ġpannalaam": 475,
      "oop": 476,
      "Ġblo": 477,
      "Ġexample": 478,
      "able": 479,
      "Ġ10": 480,
      "odel": 481,
      "ctiona": 482,
      "CSS": 483,
      "HTML": 484,
      "Ġyou": 485,
      "Ġresult": 486,
      "Ġblock": 487,
      "ere": 488,
      "gh": 489,
      "ic": 490,
      "it": 491,
      "ly": 492,
      "lla": 493,
      "put": 494,
      "ry": 495,
      "un": 496,
      "ĠF": 497,
      "Ġde": 498,
      "Ġru": 499,
      "à¯į,": 500,
      "à®°à®µ": 501,
      "Ġpanrom": 502,
      "Ġcont": 503,
      "ess": 504,
      "est": 505,
      "Ġret": 506,
      "Ġmodel": 507,
      "Ġname": 508,
      "Ġwe": 509,
      "Ġwh": 510,
      "radhu": 511,
      "Ġloop": 512,
      "Ġà®ħà®¤": 513,
      "Ġà®ķà®Ł": 514,
      "sue": 515,
      "Ġoru": 516,
      "Ġaagum": 517,
      "Boo": 518,
      "Sam": 519,
      "ax": 520,
      "ber": 521,
      "eg": 522,
      "em": 523,
      "en": 524,
      "ep": 525,
      "fere": 526,
      "ix": 527,
      "iable": 528,
      "igh": 529,
      "lse": 530,
      "ol": 531,
      "ot": 532,
      "sw": 533,
      "ts": 534,
      "tw": 535,
      "tion": 536,
      "ukku": 537,
      "ve": 538,
      "ynt": 539,
      "Ġg": 540,
      "Ġo": 541,
      "Ġof": 542,
      "Ġone": 543,
      "à®İ": 544,
      "à¯ģ,": 545,
      "à®¿,": 546,
      "à®Łà®°": 547,
      "à¯Ī.": 548,
      "Ġpar": 549,
      "Ġpage": 550,
      "Ġint": 551,
      "ondi": 552,
      "Ġeth": 553,
      "Ġelse": 554,
      "à®µà®±": 555,
      "lean": 556,
      "Ġissue": 557,
      "Ġpanni": 558,
      "Ġcom": 559,
      "ariable": 560,
      "rain": 561,
      "Ġtest": 562,
      "Ġtrain": 563,
      "alse": 564,
      "Ġinc": 565,
      "Ġà®īà®³": 566,
      "ĠAPI": 567,
      "Ġhe": 568,
      "abase": 569,
      "assw": 570,
      "oftw": 571,
      "Ġnot": 572,
      "Ġdata": 573,
      "Ġvalue": 574,
      "pect": 575,
      "ctionary": 576,
      "unction": 577,
      "Boolean": 578,
      "eger": 579,
      "yntax": 580,
      "ondition": 581,
      "Ġethukku": 582,
      "assword": 583,
      "oftware": 584,
      "\",": 585,
      "\":": 586,
      "\"}": 587,
      "An": 588,
      "True": 589,
      "ac": 590,
      "du": 591,
      "date": 592,
      "fer": 593,
      "ffere": 594,
      "im": 595,
      "ith": 596,
      "ks": 597,
      "lp": 598,
      "les": 599,
      "mat": 600,
      "mes": 601,
      "mal": 602,
      "pdi": 603,
      "pdate": 604,
      "rn": 605,
      "ug": 606,
      "upp": 607,
      "urn": 608,
      "ver": 609,
      "{\"": 610,
      "Ġ0": 611,
      "Ġk": 612,
      "Ġ[\"": 613,
      "ĠCSS": 614,
      "ĠHTML": 615,
      "ĠTrue": 616,
      "Ġ{\"": 617,
      "à¯į?": 618,
      "à®ķà®¤": 619,
      "à®ķà®ª": 620,
      "à®¤à®µ": 621,
      "à®Łà®©": 622,
      "Ġpro": 623,
      "à®±à®¤": 624,
      "Ġilla": 625,
      "à®¾?": 626,
      "Ġsep": 627,
      "Ġsol": 628,
      "Ġsyntax": 629,
      "Ġsoftware": 630,
      "ation": 631,
      "Ġepdi": 632,
      "Ġà®İà®¤": 633,
      "Ġà®İà®Ł": 634,
      "Ġas": 635,
      "Ġà®ªà®Ł": 636,
      "Ġrefer": 637,
      "Ġà®®à®±": 638,
      "lection": 639,
      "Ġma": 640,
      "Ġmy": 641,
      "Ġmess": 642,
      "Ġà®¤à®°à®µ": 643,
      "Ġfix": 644,
      "Ġnames": 645,
      "Ġwor": 646,
      "Ġwith": 647,
      "arn": 648,
      "arate": 649,
      "Ġà®ĩà®°": 650,
      "Ġà®ĩà®£": 651,
      "Ġto": 652,
      "Ġtrue": 653,
      "Ġanupp": 654,
      "Ġthat": 655,
      "Ġins": 656,
      "Ġinput": 657,
      "Ġlin": 658,
      "Ġlist": 659,
      "Ġà®īà®¤à®µ": 660,
      "ĠIn": 661,
      "Ġ15": 662,
      "Ġitem": 663,
      "angu": 664,
      "Ġcollection": 665,
      "Ġdatabase": 666,
      "Ġvalues": 667,
      "luding": 668,
      "Ġà®Ĵà®°": 669,
      "Ġchang": 670,
      "Ġà®ªà®¯à®©": 671,
      "Ġdiffere": 672,
      "Ġdoes": 673,
      "ĠFalse": 674,
      "Ġdef": 675,
      "Ġrun": 676,
      "Ġreturn": 677,
      "Ġweigh": 678,
      "à®İà®©": 679,
      "Ġtraining": 680,
      "Ġincluding": 681,
      "Ġhelp": 682,
      "Ġseparate": 683,
      "Ġmessage": 684,
      "Ġinputs": 685,
      "Ġdifferent": 686,
      "Ġweights": 687,
      "API": 688,
      "Code": 689,
      "Condition": 690,
      "Di": 691,
      "Do": 692,
      "Dat": 693,
      "En": 694,
      "Ex": 695,
      "Function": 696,
      "Int": 697,
      "List": 698,
      "Password": 699,
      "Variable": 700,
      "We": 701,
      "ain": 702,
      "aar": 703,
      "ading": 704,
      "ave": 705,
      "ch": 706,
      "cre": 707,
      "cri": 708,
      "cord": 709,
      "cess": 710,
      "ex": 711,
      "ey": 712,
      "eck": 713,
      "ecre": 714,
      "gan": 715,
      "hs": 716,
      "iz": 717,
      "kk": 718,
      "ls": 719,
      "ms": 720,
      "mber": 721,
      "nu": 722,
      "ow": 723,
      "ole": 724,
      "omat": 725,
      "ps": 726,
      "pone": 727,
      "pac": 728,
      "phs": 729,
      "qu": 730,
      "ram": 731,
      "sing": 732,
      "ter": 733,
      "ure": 734,
      "udhu": 735,
      "udi": 736,
      "wo": 737,
      "yum": 738,
      "Ġ-": 739,
      "ĠR": 740,
      "ĠS": 741,
      "Ġla": 742,
      "Ġle": 743,
      "ĠBoolean": 744,
      "ĩà®£": 745,
      "à®ĩà®£": 746,
      "Ġà®Ĩ": 747,
      "à®ķà®²": 748,
      "à®ķà®°": 749,
      "à®ķà®ļ": 750,
      "à®¤à®©": 751,
      "à®¤à®³": 752,
      "à®¤à®°à®µ": 753,
      "à®ªà®¨": 754,
      "à®Łà®¤": 755,
      "à®Łà®®": 756,
      "à®Łà®³": 757,
      "red": 758,
      "Ġpra": 759,
      "Ġpassword": 760,
      "Ġpaar": 761,
      "Ġiru": 762,
      "à®¯à®©": 763,
      "à®¯à®ª": 764,
      "à®¯à®°": 765,
      "à®¯à®±": 766,
      "à®¯à®Ļ": 767,
      "Ġsmal": 768,
      "Ġspac": 769,
      "ates": 770,
      "à®³à®ķ": 771,
      "Ġà®İà®ª": 772,
      "Ġà®İà®£": 773,
      "Ġà®İà®´": 774,
      "Ġpanradhu": 775,
      "ors": 776,
      "ory": 777,
      "Ġaut": 778,
      "Ġadhu": 779,
      "à®µà®Ļ": 780,
      "Ġcondition": 781,
      "ined": 782,
      "dered": 783,
      "Ġrep": 784,
      "Ġreu": 785,
      "Ġreme": 786,
      "Ġrepe": 787,
      "Ġrecord": 788,
      "nts": 789,
      "cture": 790,
      "Ġmar": 791,
      "Ġmis": 792,
      "Ġmudi": 793,
      "Ġà®¤à®©": 794,
      "Ġfra": 795,
      "Ġfore": 796,
      "Ġfont": 797,
      "Ġfrom": 798,
      "Ġfunction": 799,
      "Ġstru": 800,
      "Ġstate": 801,
      "agra": 802,
      "Ġwri": 803,
      "Ġà®ĩà®Ł": 804,
      "Ġà®ĩà®¯à®Ļ": 805,
      "Ġexpect": 806,
      "Ġtas": 807,
      "Ġtwo": 808,
      "Ġà®µà®°": 809,
      "umber": 810,
      "Ġva": 811,
      "Ġven": 812,
      "Ġvariable": 813,
      "ment": 814,
      "rie": 815,
      "rou": 816,
      "rodu": 817,
      "Ġupdate": 818,
      "Ġlim": 819,
      "aiyum": 820,
      "Ġà®ħà®®": 821,
      "oose": 822,
      "Ġà®īà®°": 823,
      "Ġà®īà®£": 824,
      "ĠAn": 825,
      "ĠApp": 826,
      "ĠIt": 827,
      "Ġbe": 828,
      "Ġbug": 829,
      "Ġhas": 830,
      "Ġhist": 831,
      "Ġorgan": 832,
      "Ġordered": 833,
      "Ġused": 834,
      "aadhu": 835,
      "yout": 836,
      "ctice": 837,
      "Ġforms": 838,
      "Ġnumber": 839,
      "Ġcolon": 840,
      "Ġcolors": 841,
      "à®µà®°à®Ļ": 842,
      "Ġcheck": 843,
      "Ġpannumaa": 844,
      "Ġdictionary": 845,
      "ctional": 846,
      "Ġyour": 847,
      "itt": 848,
      "ĠFor": 849,
      "Ġrules": 850,
      "Ġcontain": 851,
      "Ġcontex": 852,
      "Ġretrie": 853,
      "Ġweb": 854,
      "Ġwhole": 855,
      "Ġpart": 856,
      "Ġparagra": 857,
      "Ġinter": 858,
      "Ġinteger": 859,
      "Ġcomm": 860,
      "Ġcompone": 861,
      "\"};": 862,
      "Ġkey": 863,
      "Ġprocess": 864,
      "Ġsollu": 865,
      "Ġà®İà®¤à®±": 866,
      "Ġwork": 867,
      "Ġanuppa": 868,
      "Ġinspect": 869,
      "Ġlinks": 870,
      "anguage": 871,
      "Ġchange": 872,
      "Ġdefined": 873,
      "Dictionary": 874,
      "Explain": 875,
      "Integer": 876,
      "Web": 877,
      "adings": 878,
      "crib": 879,
      "omatic": 880,
      "ramm": 881,
      "Ġlayout": 882,
      "Ġlearn": 883,
      "à®¤à®³à®®": 884,
      "Ġpractice": 885,
      "Ġpaaru": 886,
      "Ġsmall": 887,
      "Ġspacing": 888,
      "Ġautomatic": 889,
      "Ġremember": 890,
      "Ġrepeat": 891,
      "Ġrecords": 892,
      "Ġmark": 893,
      "Ġfractional": 894,
      "Ġforever": 895,
      "Ġfonts": 896,
      "Ġstructure": 897,
      "Ġstatement": 898,
      "Ġwrit": 899,
      "Ġexpected": 900,
      "Ġtask": 901,
      "roduce": 902,
      "Ġlimit": 903,
      "Ġhistory": 904,
      "Ġorganiz": 905,
      "Ġcontext": 906,
      "Ġparagraphs": 907,
      "Ġcomponents": 908,
      "\".": 909,
      "Bug": 910,
      "Ch": 911,
      "Co": 912,
      "Can": 913,
      "Chat": 914,
      "Des": 915,
      "El": 916,
      "Error": 917,
      "Fix": 918,
      "He": 919,
      "How": 920,
      "If": 921,
      "Is": 922,
      "Le": 923,
      "Loop": 924,
      "Language": 925,
      "Model": 926,
      "Ne": 927,
      "Nor": 928,
      "Or": 929,
      "Oru": 930,
      "Ple": 931,
      "Pudhu": 932,
      "Sh": 933,
      "Syntax": 934,
      "Software": 935,
      "Un": 936,
      "ala": 937,
      "aam": 938,
      "act": 939,
      "ace": 940,
      "bo": 941,
      "ci": 942,
      "dd": 943,
      "dle": 944,
      "dra": 945,
      "dai": 946,
      "dow": 947,
      "daam": 948,
      "et": 949,
      "ew": 950,
      "ean": 951,
      "ect": 952,
      "equ": 953,
      "fter": 954,
      "face": 955,
      "ga": 956,
      "gramm": 957,
      "have": 958,
      "haiyum": 959,
      "if": 960,
      "ire": 961,
      "ina": 962,
      "iol": 963,
      "ive": 964,
      "idai": 965,
      "kes": 966,
      "kitt": 967,
      "ld": 968,
      "lat": 969,
      "late": 970,
      "llaam": 971,
      "lic": 972,
      "nde": 973,
      "nce": 974,
      "ndu": 975,
      "ou": 976,
      "out": 977,
      "oci": 978,
      "pon": 979,
      "per": 980,
      "ples": 981,
      "rs": 982,
      "ring": 983,
      "st": 984,
      "sable": 985,
      "scrib": 986,
      "soci": 987,
      "spon": 988,
      "ting": 989,
      "tru": 990,
      "tai": 991,
      "tudent": 992,
      "ula": 993,
      "ura": 994,
      "uradhu": 995,
      "update": 996,
      "uch": 997,
      "vv": 998,
      "van": 999,
      "vaa": 1000,
      "valu": 1001,
      "ved": 1002,
      "vula": 1003,
      "yle": 1004,
      "yst": 1005,
      "yura": 1006,
      "°à®ķà®ļ": 1007,
      "Ġon": 1008,
      "ĠCode": 1009,
      "ĠCondition": 1010,
      "ĠList": 1011,
      "ĠDes": 1012,
      "ĠError": 1013,
      "ĠHe": 1014,
      "ĠLe": 1015,
      "ĠNe": 1016,
      "ĠPudhu": 1017,
      "ħà®ķà®°": 1018,
      "īà®Ļ": 1019,
      "ıà®©": 1020,
      "Ĵà®°": 1021,
      "ĵà®°": 1022,
      "à®ħà®ķà®°": 1023,
      "à®īà®Ļ": 1024,
      "à®Ĵà®°": 1025,
      "à¯į;": 1026,
      "Ġà®²": 1027,
      "Ġà®°à®ķà®ļ": 1028,
      "Ġà®ıà®©": 1029,
      "Ġà®ĵà®°": 1030,
      "à¯ģ?": 1031,
      "à®ķà®ķ": 1032,
      "à®ķà®Ł": 1033,
      "à®ķà®®": 1034,
      "à®ķà®µ": 1035,
      "à®ķà®£": 1036,
      "à®¤à®ķ": 1037,
      "à®¤à®¤": 1038,
      "andh": 1039,
      "andle": 1040,
      "à®©à®ª": 1041,
      "à®²à®¤": 1042,
      "à®²à®©": 1043,
      "à®²à®®": 1044,
      "à®Łà®Ļ": 1045,
      "ren": 1046,
      "rese": 1047,
      "rect": 1048,
      "reate": 1049,
      "à®°à®®": 1050,
      "à®°à®£": 1051,
      "à®°à®ļ": 1052,
      "à®°à®Ļ": 1053,
      "Ġpat": 1054,
      "Ġpai": 1055,
      "Ġprese": 1056,
      "à®±à®ķ": 1057,
      "à®±à®®": 1058,
      "à®±à®µ": 1059,
      "Ġillaam": 1060,
      "nary": 1061,
      "à®®à®²": 1062,
      "à®¯à®µà®±": 1063,
      "Ġso": 1064,
      "Ġsam": 1065,
      "Ġsim": 1066,
      "Ġsecre": 1067,
      "Ġsuch": 1068,
      "Ġsyst": 1069,
      "atch": 1070,
      "Ġelu": 1071,
      "Ġella": 1072,
      "Ġeac": 1073,
      "Ġever": 1074,
      "à®³à®©": 1075,
      "à®³à®²": 1076,
      "à®³à®°à®®": 1077,
      "Ġpanra": 1078,
      "Ġpanren": 1079,
      "oru": 1080,
      "orrect": 1081,
      "Ġapp": 1082,
      "Ġadd": 1083,
      "Ġafter": 1084,
      "Ġchat": 1085,
      "Ġcase": 1086,
      "Ġcreate": 1087,
      "ther": 1088,
      "Ġà®ªà®¤": 1089,
      "Ġà®ªà®²": 1090,
      "Ġà®ªà®£": 1091,
      "indow": 1092,
      "Ġà®İà®©à®ª": 1093,
      "ese": 1094,
      "Ġrele": 1095,
      "Ġrece": 1096,
      "Ġrequ": 1097,
      "Ġrelate": 1098,
      "Ġrendu": 1099,
      "Ġrespon": 1100,
      "Ġà®®à®Ł": 1101,
      "ntation": 1102,
      "Ġmut": 1103,
      "Ġmigh": 1104,
      "Ġmean": 1105,
      "Ġmatch": 1106,
      "Ġà®¤à®²": 1107,
      "Ġà®¤à®°": 1108,
      "Ġà®¤à®°à®²": 1109,
      "Ġà®¤à®µà®±": 1110,
      "Ġfalse": 1111,
      "à®£à®µà®°": 1112,
      "erate": 1113,
      "à®ļà®¤": 1114,
      "à®ļà®Ļ": 1115,
      "Ġstring": 1116,
      "Ġstyle": 1117,
      "Ġpannradhu": 1118,
      "Ġpannitt": 1119,
      "Ġwhat": 1120,
      "Ġwindow": 1121,
      "Ġà®ĩà®¤": 1122,
      "Ġà®ĩà®Ļ": 1123,
      "Ġthrou": 1124,
      "Ġthese": 1125,
      "Ġà®µà®Ł": 1126,
      "Ġà®µà®°à®²": 1127,
      "Ġà®µà®ļà®¤": 1128,
      "Ġà®ļà®°à®Ļ": 1129,
      "ally": 1130,
      "ything": 1131,
      "Ġvis": 1132,
      "Ġviol": 1133,
      "Ġvandh": 1134,
      "Ġinfere": 1135,
      "Ġinga": 1136,
      "dhi": 1137,
      "rols": 1138,
      "Ġusing": 1139,
      "Ġunde": 1140,
      "ution": 1141,
      "utput": 1142,
      "Ġlanguage": 1143,
      "Ġà®ħà®²": 1144,
      "Ġà®ħà®µ": 1145,
      "Ġà®ħà®£": 1146,
      "Ġà®ħà®µà®±": 1147,
      "Ġà®ħà®ķà®°": 1148,
      "Ġà®ħà®Łà®Ļ": 1149,
      "à®´à®²": 1150,
      "Ġà®īà®±": 1151,
      "Ġà®ķà®±": 1152,
      "ĠAdhu": 1153,
      "ĠIf": 1154,
      "ĠIlla": 1155,
      "Ġbut": 1156,
      "Ġhere": 1157,
      "Ġhave": 1158,
      "Ġhandle": 1159,
      "Ġendra": 1160,
      "Ġenkitt": 1161,
      "Ġexamples": 1162,
      "dinary": 1163,
      "Ġits": 1164,
      "Ġaagudhu": 1165,
      "Ġaagaadhu": 1166,
      "Ġaagala": 1167,
      "Ġaaguradhu": 1168,
      "ctions": 1169,
      "Ġformat": 1170,
      "Ġnew": 1171,
      "angi": 1172,
      "Ġstored": 1173,
      "Ġà®ĩà®²à®ķ": 1174,
      "Ġà®Ĵà®©": 1175,
      "Ġà®Ĵà®µ": 1176,
      "Ġà®Ĵà®´": 1177,
      "Ġchoose": 1178,
      "Ġpannumbo": 1179,
      "Ġdid": 1180,
      "ich": 1181,
      "icate": 1182,
      "unicate": 1183,
      "Ġdescrib": 1184,
      "Ġdetai": 1185,
      "Ġcontrols": 1186,
      "Ġwhy": 1187,
      "Ġwhen": 1188,
      "Ġwhich": 1189,
      "Ġà®ķà®Łà®µ": 1190,
      "Same": 1191,
      "enerate": 1192,
      "eproduce": 1193,
      "Ġgrou": 1194,
      "Ġgramm": 1195,
      "Ġget": 1196,
      "Ġgenerate": 1197,
      "Ġoper": 1198,
      "Ġovv": 1199,
      "Ġother": 1200,
      "Ġoutput": 1201,
      "à®İà®²": 1202,
      "Ġpannina": 1203,
      "Ġincorrect": 1204,
      "Ġheadings": 1205,
      "Ġkidai": 1206,
      "Ġprogramm": 1207,
      "Ġsolution": 1208,
      "ations": 1209,
      "Ġassoci": 1210,
      "Ġrefers": 1211,
      "Ġmay": 1212,
      "Ġmaps": 1213,
      "Ġmakes": 1214,
      "Ġworks": 1215,
      "Ġwithout": 1216,
      "arning": 1217,
      "Ġà®ĩà®°à®£": 1218,
      "Ġanuppi": 1219,
      "Ġinstru": 1220,
      "Ġline": 1221,
      "Ġà®īà®¤à®µà®²": 1222,
      "ĠInput": 1223,
      "Ġitems": 1224,
      "anguradhu": 1225,
      "Ġchanging": 1226,
      "Ġdefect": 1227,
      "Ġruns": 1228,
      "Ġreturns": 1229,
      "Ġseparately": 1230,
      "Does": 1231,
      "Data": 1232,
      "Database": 1233,
      "ecret": 1234,
      "kkum": 1235,
      "kkaadhu": 1236,
      "tern": 1237,
      "ĠRequ": 1238,
      "ĠReproduce": 1239,
      "ĠStudent": 1240,
      "ĠSecret": 1241,
      "Ġà®Ĩà®ķ": 1242,
      "Ġà®Ĩà®°": 1243,
      "Ġirukku": 1244,
      "Ġirukkaadhu": 1245,
      "Ġadhula": 1246,
      "Ġreply": 1247,
      "Ġreproduce": 1248,
      "Ġreuse": 1249,
      "Ġreusable": 1250,
      "Ġmiss": 1251,
      "Ġmissing": 1252,
      "Ġmudivula": 1253,
      "Ġmudiyura": 1254,
      "Ġvaangi": 1255,
      "Ġvaanguradhu": 1256,
      "Ġvenum": 1257,
      "Ġvendaam": 1258,
      "Ġupdated": 1259,
      "ĠAppo": 1260,
      "Ġbehave": 1261,
      "Ġcontains": 1262,
      "Ġretrieve": 1263,
      "Ġretrieved": 1264,
      "Ġinteract": 1265,
      "Ġinterface": 1266,
      "Ġcommon": 1267,
      "Ġcommunicate": 1268,
      "Ġkeys": 1269,
      "Ġanuppavaa": 1270,
      "cribe": 1271,
      "Ġautomatically": 1272,
      "Ġrepeats": 1273,
      "Ġwrite": 1274,
      "Ġwrites": 1275,
      "Ġlimited": 1276,
      "Ġorganizes": 1277,
      "Ġorganized": 1278,
      "Choose": 1279,
      "Coding": 1280,
      "Ellat": 1281,
      "Issue": 1282,
      "Normal": 1283,
      "Ordinary": 1284,
      "Please": 1285,
      "Shou": 1286,
      "ires": 1287,
      "lication": 1288,
      "vant": 1289,
      "value": 1290,
      "Ġonly": 1291,
      "ĠConditions": 1292,
      "ĠDescribe": 1293,
      "ĠHeadings": 1294,
      "ĠLearning": 1295,
      "ĠNee": 1296,
      "à®ķà®Łà®µ": 1297,
      "à®°à®£à®®": 1298,
      "Ġpattern": 1299,
      "Ġpairs": 1300,
      "Ġpresentation": 1301,
      "Ġillaama": 1302,
      "Ġsame": 1303,
      "Ġsimple": 1304,
      "Ġsecrets": 1305,
      "Ġsystem": 1306,
      "Ġeludhi": 1307,
      "Ġellam": 1308,
      "Ġeach": 1309,
      "Ġeverything": 1310,
      "Ġapplication": 1311,
      "Ġchatting": 1312,
      "Ġrelevant": 1313,
      "Ġreceive": 1314,
      "Ġrequires": 1315,
      "Ġrelated": 1316,
      "Ġresponse": 1317,
      "Ġmutable": 1318,
      "Ġmight": 1319,
      "Ġmeans": 1320,
      "Ġstrings": 1321,
      "Ġpannittu": 1322,
      "Ġthrough": 1323,
      "Ġvisit": 1324,
      "Ġviolates": 1325,
      "Ġvandha": 1326,
      "Ġinference": 1327,
      "Ġunder": 1328,
      "ĠIllaina": 1329,
      "Ġenkitta": 1330,
      "Ġformats": 1331,
      "Ġpannumbodhu": 1332,
      "Ġdescribes": 1333,
      "Ġdetails": 1334,
      "Ġgroups": 1335,
      "Ġgrammar": 1336,
      "Ġoperations": 1337,
      "Ġovvoru": 1338,
      "Ġincorrectly": 1339,
      "Ġkidaikkum": 1340,
      "Ġprogramming": 1341,
      "Ġassociates": 1342,
      "Ġinstructions": 1343,
      "ĠRequest": 1344,
      "Ellathaiyum": 1345,
      "Should": 1346
    },
    "merges": [
      [
        "à",
        "®"
      ],
      [
        "à",
        "¯"
      ],
      [
        "à¯",
        "į"
      ],
      [
        "Ġ",
        "à®"
      ],
      [
        "à¯",
        "ģ"
      ],
      [
        "à®",
        "¿"
      ],
      [
        "à®",
        "ķ"
      ],
      [
        "à®",
        "¤"
      ],
      [
        "a",
        "n"
      ],
      [
        "à®",
        "©"
      ],
      [
        "à®",
        "ª"
      ],
      [
        "à®",
        "²"
      ],
      [
        "à®",
        "Ł"
      ],
      [
        "r",
        "e"
      ],
      [
        "à¯",
        "Ī"
      ],
      [
        "à®",
        "°"
      ],
      [
        "Ġ",
        "p"
      ],
      [
        "à®",
        "±"
      ],
      [
        "Ġ",
        "i"
      ],
      [
        "n",
        "a"
      ],
      [
        "à®",
        "¾"
      ],
      [
        "à®",
        "®"
      ],
      [
        "à®",
        "¯"
      ],
      [
        "Ġ",
        "s"
      ],
      [
        "a",
        "t"
      ],
      [
        "o",
        "n"
      ],
      [
        "Ġ",
        "e"
      ],
      [
        "à®",
        "³"
      ],
      [
        "Ġà®",
        "İ"
      ],
      [
        "Ġp",
        "an"
      ],
      [
        "o",
        "r"
      ],
      [
        "Ġ",
        "a"
      ],
      [
        "à®",
        "µ"
      ],
      [
        "Ġ",
        "c"
      ],
      [
        "t",
        "h"
      ],
      [
        "Ġà®",
        "ª"
      ],
      [
        "i",
        "n"
      ],
      [
        "Ġà®İ",
        "à®©"
      ],
      [
        "d",
        "e"
      ],
      [
        "e",
        "s"
      ],
      [
        "s",
        "e"
      ],
      [
        "Ġ",
        "re"
      ],
      [
        "Ġà®",
        "®"
      ],
      [
        "l",
        "a"
      ],
      [
        "l",
        "e"
      ],
      [
        "n",
        "t"
      ],
      [
        "a",
        "m"
      ],
      [
        "à®ķ",
        "à®³"
      ],
      [
        "c",
        "t"
      ],
      [
        "Ġ",
        "m"
      ],
      [
        "Ġà®",
        "¤"
      ],
      [
        "Ġi",
        "s"
      ],
      [
        "Ġ",
        "f"
      ],
      [
        "à®",
        "£"
      ],
      [
        "à¯į",
        "."
      ],
      [
        "e",
        "r"
      ],
      [
        "Ġ",
        "na"
      ],
      [
        "à®",
        "ļ"
      ],
      [
        "à¯",
        "Ĩ"
      ],
      [
        "Ġs",
        "t"
      ],
      [
        "Ġpan",
        "n"
      ],
      [
        "Ġc",
        "o"
      ],
      [
        "a",
        "g"
      ],
      [
        "Ġ",
        "w"
      ],
      [
        "a",
        "r"
      ],
      [
        "Ġ",
        "d"
      ],
      [
        "Ġà®",
        "ĩ"
      ],
      [
        "Ġe",
        "x"
      ],
      [
        "in",
        "g"
      ],
      [
        "r",
        "a"
      ],
      [
        "Ġ",
        "t"
      ],
      [
        "Ġ",
        "an"
      ],
      [
        "Ġ",
        "th"
      ],
      [
        "à¯",
        "Ĭ"
      ],
      [
        "Ġà®",
        "µ"
      ],
      [
        "Ġà®",
        "ļ"
      ],
      [
        "r",
        "u"
      ],
      [
        "u",
        "m"
      ],
      [
        "Ġpan",
        "na"
      ],
      [
        "a",
        "l"
      ],
      [
        "h",
        "at"
      ],
      [
        "i",
        "on"
      ],
      [
        "y",
        "th"
      ],
      [
        "Ġ",
        "v"
      ],
      [
        "Ġi",
        "n"
      ],
      [
        "P",
        "yth"
      ],
      [
        "d",
        "h"
      ],
      [
        "m",
        "e"
      ],
      [
        "o",
        "re"
      ],
      [
        "r",
        "i"
      ],
      [
        "r",
        "o"
      ],
      [
        "Ġ",
        "u"
      ],
      [
        "à®",
        "Ļ"
      ],
      [
        "Pyth",
        "on"
      ],
      [
        "u",
        "t"
      ],
      [
        "Ġ",
        "l"
      ],
      [
        "W",
        "hat"
      ],
      [
        "a",
        "i"
      ],
      [
        "à¯",
        "ĩ"
      ],
      [
        "Ġà®",
        "ħ"
      ],
      [
        "à®ª",
        "à®Ł"
      ],
      [
        "Ġth",
        "e"
      ],
      [
        "dh",
        "u"
      ],
      [
        "o",
        "o"
      ],
      [
        "à®",
        "´"
      ],
      [
        "Ġà®",
        "ī"
      ],
      [
        "Ġà®",
        "ķ"
      ],
      [
        "à®¯",
        "à®²"
      ],
      [
        "at",
        "e"
      ],
      [
        "s",
        "u"
      ],
      [
        "Ġ",
        "A"
      ],
      [
        "Ġ",
        "I"
      ],
      [
        "Ġ",
        "b"
      ],
      [
        "Ġ",
        "h"
      ],
      [
        "Ġ",
        "or"
      ],
      [
        "Ġ",
        "Python"
      ],
      [
        "à®",
        "¨"
      ],
      [
        "à¯",
        "Ĥ"
      ],
      [
        "Ġe",
        "n"
      ],
      [
        "Ġà®ª",
        "à®ķ"
      ],
      [
        "Ġex",
        "am"
      ],
      [
        "Ġu",
        "se"
      ],
      [
        "a",
        "b"
      ],
      [
        "a",
        "re"
      ],
      [
        "d",
        "i"
      ],
      [
        "i",
        "s"
      ],
      [
        "à®°",
        "à®²"
      ],
      [
        "Ġco",
        "de"
      ],
      [
        "P",
        "ri"
      ],
      [
        "k",
        "u"
      ],
      [
        "u",
        "de"
      ],
      [
        "y",
        "an"
      ],
      [
        "Ġ",
        "\""
      ],
      [
        "Ġ",
        "1"
      ],
      [
        "Ġ",
        "="
      ],
      [
        "à¯ģ",
        "."
      ],
      [
        "Ġi",
        "t"
      ],
      [
        "Ġa",
        "ag"
      ],
      [
        "Ġpann",
        "u"
      ],
      [
        "ag",
        "e"
      ],
      [
        "Ġan",
        "d"
      ],
      [
        "Ġen",
        "na"
      ],
      [
        "Pri",
        "yan"
      ],
      [
        "ude",
        "nt"
      ],
      [
        "a",
        "a"
      ],
      [
        "a",
        "s"
      ],
      [
        "c",
        "k"
      ],
      [
        "o",
        "f"
      ],
      [
        "o",
        "de"
      ],
      [
        "p",
        "la"
      ],
      [
        "y",
        "o"
      ],
      [
        "à¯",
        "ĭ"
      ],
      [
        "Ġà®",
        "¨"
      ],
      [
        "à®ª",
        "à®¤"
      ],
      [
        "ct",
        "i"
      ],
      [
        "ct",
        "ion"
      ],
      [
        "Ġf",
        "or"
      ],
      [
        "Ġst",
        "udent"
      ],
      [
        "al",
        "u"
      ],
      [
        "pla",
        "in"
      ],
      [
        "c",
        "e"
      ],
      [
        "e",
        "d"
      ],
      [
        "p",
        "le"
      ],
      [
        "r",
        "r"
      ],
      [
        "Ġ",
        "n"
      ],
      [
        "an",
        "g"
      ],
      [
        "Ġi",
        "f"
      ],
      [
        "on",
        "t"
      ],
      [
        "Ġà®®",
        "à®¤"
      ],
      [
        "la",
        "am"
      ],
      [
        "Ġst",
        "ore"
      ],
      [
        "Ġco",
        "l"
      ],
      [
        "Ġd",
        "at"
      ],
      [
        "Ġà®ĩ",
        "à®²"
      ],
      [
        "Ġv",
        "alu"
      ],
      [
        "ro",
        "m"
      ],
      [
        "is",
        "t"
      ],
      [
        "rr",
        "or"
      ],
      [
        "\"",
        "]"
      ],
      [
        "C",
        "S"
      ],
      [
        "H",
        "T"
      ],
      [
        "M",
        "L"
      ],
      [
        "P",
        "I"
      ],
      [
        "[",
        "\""
      ],
      [
        "a",
        "se"
      ],
      [
        "c",
        "ore"
      ],
      [
        "d",
        "ing"
      ],
      [
        "h",
        "are"
      ],
      [
        "k",
        "ku"
      ],
      [
        "l",
        "o"
      ],
      [
        "l",
        "t"
      ],
      [
        "l",
        "u"
      ],
      [
        "o",
        "na"
      ],
      [
        "p",
        "e"
      ],
      [
        "p",
        "p"
      ],
      [
        "Ġ",
        "yo"
      ],
      [
        "à¯",
        "Ģ"
      ],
      [
        "Ġà®",
        "Ĵ"
      ],
      [
        "na",
        "me"
      ],
      [
        "Ġs",
        "core"
      ],
      [
        "Ġs",
        "hare"
      ],
      [
        "on",
        "e"
      ],
      [
        "Ġe",
        "rror"
      ],
      [
        "or",
        "d"
      ],
      [
        "à®µ",
        "à®¤"
      ],
      [
        "à®µ",
        "à®°"
      ],
      [
        "Ġc",
        "h"
      ],
      [
        "Ġc",
        "an"
      ],
      [
        "Ġà®ª",
        "à®¯"
      ],
      [
        "Ġre",
        "su"
      ],
      [
        "Ġpann",
        "um"
      ],
      [
        "Ġd",
        "i"
      ],
      [
        "Ġd",
        "o"
      ],
      [
        "Ġex",
        "plain"
      ],
      [
        "ru",
        "e"
      ],
      [
        "Ġpanna",
        "laam"
      ],
      [
        "oo",
        "p"
      ],
      [
        "Ġb",
        "lo"
      ],
      [
        "Ġexam",
        "ple"
      ],
      [
        "ab",
        "le"
      ],
      [
        "Ġ1",
        "0"
      ],
      [
        "ode",
        "l"
      ],
      [
        "cti",
        "ona"
      ],
      [
        "CS",
        "S"
      ],
      [
        "HT",
        "ML"
      ],
      [
        "Ġyo",
        "u"
      ],
      [
        "Ġresu",
        "lt"
      ],
      [
        "Ġblo",
        "ck"
      ],
      [
        "e",
        "re"
      ],
      [
        "g",
        "h"
      ],
      [
        "i",
        "c"
      ],
      [
        "i",
        "t"
      ],
      [
        "l",
        "y"
      ],
      [
        "l",
        "la"
      ],
      [
        "p",
        "ut"
      ],
      [
        "r",
        "y"
      ],
      [
        "u",
        "n"
      ],
      [
        "Ġ",
        "F"
      ],
      [
        "Ġ",
        "de"
      ],
      [
        "Ġ",
        "ru"
      ],
      [
        "à¯į",
        ","
      ],
      [
        "à®°",
        "à®µ"
      ],
      [
        "Ġpan",
        "rom"
      ],
      [
        "Ġc",
        "ont"
      ],
      [
        "es",
        "s"
      ],
      [
        "es",
        "t"
      ],
      [
        "Ġre",
        "t"
      ],
      [
        "Ġm",
        "odel"
      ],
      [
        "Ġna",
        "me"
      ],
      [
        "Ġw",
        "e"
      ],
      [
        "Ġw",
        "h"
      ],
      [
        "ra",
        "dhu"
      ],
      [
        "Ġl",
        "oop"
      ],
      [
        "Ġà®ħ",
        "à®¤"
      ],
      [
        "Ġà®ķ",
        "à®Ł"
      ],
      [
        "su",
        "e"
      ],
      [
        "Ġor",
        "u"
      ],
      [
        "Ġaag",
        "um"
      ],
      [
        "B",
        "oo"
      ],
      [
        "S",
        "am"
      ],
      [
        "a",
        "x"
      ],
      [
        "b",
        "er"
      ],
      [
        "e",
        "g"
      ],
      [
        "e",
        "m"
      ],
      [
        "e",
        "n"
      ],
      [
        "e",
        "p"
      ],
      [
        "f",
        "ere"
      ],
      [
        "i",
        "x"
      ],
      [
        "i",
        "able"
      ],
      [
        "i",
        "gh"
      ],
      [
        "l",
        "se"
      ],
      [
        "o",
        "l"
      ],
      [
        "o",
        "t"
      ],
      [
        "s",
        "w"
      ],
      [
        "t",
        "s"
      ],
      [
        "t",
        "w"
      ],
      [
        "t",
        "ion"
      ],
      [
        "u",
        "kku"
      ],
      [
        "v",
        "e"
      ],
      [
        "y",
        "nt"
      ],
      [
        "Ġ",
        "g"
      ],
      [
        "Ġ",
        "o"
      ],
      [
        "Ġ",
        "of"
      ],
      [
        "Ġ",
        "one"
      ],
      [
        "à®",
        "İ"
      ],
      [
        "à¯ģ",
        ","
      ],
      [
        "à®¿",
        ","
      ],
      [
        "à®Ł",
        "à®°"
      ],
      [
        "à¯Ī",
        "."
      ],
      [
        "Ġp",
        "ar"
      ],
      [
        "Ġp",
        "age"
      ],
      [
        "Ġi",
        "nt"
      ],
      [
        "on",
        "di"
      ],
      [
        "Ġe",
        "th"
      ],
      [
        "Ġe",
        "lse"
      ],
      [
        "à®µ",
        "à®±"
      ],
      [
        "le",
        "an"
      ],
      [
        "Ġis",
        "sue"
      ],
      [
        "Ġpann",
        "i"
      ],
      [
        "Ġco",
        "m"
      ],
      [
        "ar",
        "iable"
      ],
      [
        "ra",
        "in"
      ],
      [
        "Ġt",
        "est"
      ],
      [
        "Ġt",
        "rain"
      ],
      [
        "al",
        "se"
      ],
      [
        "Ġin",
        "c"
      ],
      [
        "Ġà®ī",
        "à®³"
      ],
      [
        "ĠA",
        "PI"
      ],
      [
        "Ġh",
        "e"
      ],
      [
        "ab",
        "ase"
      ],
      [
        "as",
        "sw"
      ],
      [
        "of",
        "tw"
      ],
      [
        "Ġn",
        "ot"
      ],
      [
        "Ġdat",
        "a"
      ],
      [
        "Ġvalu",
        "e"
      ],
      [
        "pe",
        "ct"
      ],
      [
        "ctiona",
        "ry"
      ],
      [
        "un",
        "ction"
      ],
      [
        "Boo",
        "lean"
      ],
      [
        "eg",
        "er"
      ],
      [
        "ynt",
        "ax"
      ],
      [
        "ondi",
        "tion"
      ],
      [
        "Ġeth",
        "ukku"
      ],
      [
        "assw",
        "ord"
      ],
      [
        "oftw",
        "are"
      ],
      [
        "\"",
        ","
      ],
      [
        "\"",
        ":"
      ],
      [
        "\"",
        "}"
      ],
      [
        "A",
        "n"
      ],
      [
        "T",
        "rue"
      ],
      [
        "a",
        "c"
      ],
      [
        "d",
        "u"
      ],
      [
        "d",
        "ate"
      ],
      [
        "f",
        "er"
      ],
      [
        "f",
        "fere"
      ],
      [
        "i",
        "m"
      ],
      [
        "i",
        "th"
      ],
      [
        "k",
        "s"
      ],
      [
        "l",
        "p"
      ],
      [
        "l",
        "es"
      ],
      [
        "m",
        "at"
      ],
      [
        "m",
        "es"
      ],
      [
        "m",
        "al"
      ],
      [
        "p",
        "di"
      ],
      [
        "p",
        "date"
      ],
      [
        "r",
        "n"
      ],
      [
        "u",
        "g"
      ],
      [
        "u",
        "pp"
      ],
      [
        "u",
        "rn"
      ],
      [
        "v",
        "er"
      ],
      [
        "{",
        "\""
      ],
      [
        "Ġ",
        "0"
      ],
      [
        "Ġ",
        "k"
      ],
      [
        "Ġ",
        "[\""
      ],
      [
        "Ġ",
        "CSS"
      ],
      [
        "Ġ",
        "HTML"
      ],
      [
        "Ġ",
        "True"
      ],
      [
        "Ġ",
        "{\""
      ],
      [
        "à¯į",
        "?"
      ],
      [
        "à®ķ",
        "à®¤"
      ],
      [
        "à®ķ",
        "à®ª"
      ],
      [
        "à®¤",
        "à®µ"
      ],
      [
        "à®Ł",
        "à®©"
      ],
      [
        "Ġp",
        "ro"
      ],
      [
        "à®±",
        "à®¤"
      ],
      [
        "Ġi",
        "lla"
      ],
      [
        "à®¾",
        "?"
      ],
      [
        "Ġs",
        "ep"
      ],
      [
        "Ġs",
        "ol"
      ],
      [
        "Ġs",
        "yntax"
      ],
      [
        "Ġs",
        "oftware"
      ],
      [
        "at",
        "ion"
      ],
      [
        "Ġe",
        "pdi"
      ],
      [
        "Ġà®İ",
        "à®¤"
      ],
      [
        "Ġà®İ",
        "à®Ł"
      ],
      [
        "Ġa",
        "s"
      ],
      [
        "Ġà®ª",
        "à®Ł"
      ],
      [
        "Ġre",
        "fer"
      ],
      [
        "Ġà®®",
        "à®±"
      ],
      [
        "le",
        "ction"
      ],
      [
        "Ġm",
        "a"
      ],
      [
        "Ġm",
        "y"
      ],
      [
        "Ġm",
        "ess"
      ],
      [
        "Ġà®¤",
        "à®°à®µ"
      ],
      [
        "Ġf",
        "ix"
      ],
      [
        "Ġna",
        "mes"
      ],
      [
        "Ġw",
        "or"
      ],
      [
        "Ġw",
        "ith"
      ],
      [
        "ar",
        "n"
      ],
      [
        "ar",
        "ate"
      ],
      [
        "Ġà®ĩ",
        "à®°"
      ],
      [
        "Ġà®ĩ",
        "à®£"
      ],
      [
        "Ġt",
        "o"
      ],
      [
        "Ġt",
        "rue"
      ],
      [
        "Ġan",
        "upp"
      ],
      [
        "Ġth",
        "at"
      ],
      [
        "Ġin",
        "s"
      ],
      [
        "Ġin",
        "put"
      ],
      [
        "Ġl",
        "in"
      ],
      [
        "Ġl",
        "ist"
      ],
      [
        "Ġà®ī",
        "à®¤à®µ"
      ],
      [
        "ĠI",
        "n"
      ],
      [
        "Ġ1",
        "5"
      ],
      [
        "Ġit",
        "em"
      ],
      [
        "ang",
        "u"
      ],
      [
        "Ġcol",
        "lection"
      ],
      [
        "Ġdat",
        "abase"
      ],
      [
        "Ġvalu",
        "es"
      ],
      [
        "lu",
        "ding"
      ],
      [
        "Ġà®Ĵ",
        "à®°"
      ],
      [
        "Ġch",
        "ang"
      ],
      [
        "Ġà®ªà®¯",
        "à®©"
      ],
      [
        "Ġdi",
        "ffere"
      ],
      [
        "Ġdo",
        "es"
      ],
      [
        "ĠF",
        "alse"
      ],
      [
        "Ġde",
        "f"
      ],
      [
        "Ġru",
        "n"
      ],
      [
        "Ġret",
        "urn"
      ],
      [
        "Ġwe",
        "igh"
      ],
      [
        "à®İ",
        "à®©"
      ],
      [
        "Ġtrain",
        "ing"
      ],
      [
        "Ġinc",
        "luding"
      ],
      [
        "Ġhe",
        "lp"
      ],
      [
        "Ġsep",
        "arate"
      ],
      [
        "Ġmess",
        "age"
      ],
      [
        "Ġinput",
        "s"
      ],
      [
        "Ġdiffere",
        "nt"
      ],
      [
        "Ġweigh",
        "ts"
      ],
      [
        "A",
        "PI"
      ],
      [
        "C",
        "ode"
      ],
      [
        "C",
        "ondition"
      ],
      [
        "D",
        "i"
      ],
      [
        "D",
        "o"
      ],
      [
        "D",
        "at"
      ],
      [
        "E",
        "n"
      ],
      [
        "E",
        "x"
      ],
      [
        "F",
        "unction"
      ],
      [
        "I",
        "nt"
      ],
      [
        "L",
        "ist"
      ],
      [
        "P",
        "assword"
      ],
      [
        "V",
        "ariable"
      ],
      [
        "W",
        "e"
      ],
      [
        "a",
        "in"
      ],
      [
        "a",
        "ar"
      ],
      [
        "a",
        "ding"
      ],
      [
        "a",
        "ve"
      ],
      [
        "c",
        "h"
      ],
      [
        "c",
        "re"
      ],
      [
        "c",
        "ri"
      ],
      [
        "c",
        "ord"
      ],
      [
        "c",
        "ess"
      ],
      [
        "e",
        "x"
      ],
      [
        "e",
        "y"
      ],
      [
        "e",
        "ck"
      ],
      [
        "e",
        "cre"
      ],
      [
        "g",
        "an"
      ],
      [
        "h",
        "s"
      ],
      [
        "i",
        "z"
      ],
      [
        "k",
        "k"
      ],
      [
        "l",
        "s"
      ],
      [
        "m",
        "s"
      ],
      [
        "m",
        "ber"
      ],
      [
        "n",
        "u"
      ],
      [
        "o",
        "w"
      ],
      [
        "o",
        "le"
      ],
      [
        "o",
        "mat"
      ],
      [
        "p",
        "s"
      ],
      [
        "p",
        "one"
      ],
      [
        "p",
        "ac"
      ],
      [
        "p",
        "hs"
      ],
      [
        "q",
        "u"
      ],
      [
        "r",
        "am"
      ],
      [
        "s",
        "ing"
      ],
      [
        "t",
        "er"
      ],
      [
        "u",
        "re"
      ],
      [
        "u",
        "dhu"
      ],
      [
        "u",
        "di"
      ],
      [
        "w",
        "o"
      ],
      [
        "y",
        "um"
      ],
      [
        "Ġ",
        "-"
      ],
      [
        "Ġ",
        "R"
      ],
      [
        "Ġ",
        "S"
      ],
      [
        "Ġ",
        "la"
      ],
      [
        "Ġ",
        "le"
      ],
      [
        "Ġ",
        "Boolean"
      ],
      [
        "ĩ",
        "à®£"
      ],
      [
        "à®",
        "ĩà®£"
      ],
      [
        "Ġà®",
        "Ĩ"
      ],
      [
        "à®ķ",
        "à®²"
      ],
      [
        "à®ķ",
        "à®°"
      ],
      [
        "à®ķ",
        "à®ļ"
      ],
      [
        "à®¤",
        "à®©"
      ],
      [
        "à®¤",
        "à®³"
      ],
      [
        "à®¤",
        "à®°à®µ"
      ],
      [
        "à®ª",
        "à®¨"
      ],
      [
        "à®Ł",
        "à®¤"
      ],
      [
        "à®Ł",
        "à®®"
      ],
      [
        "à®Ł",
        "à®³"
      ],
      [
        "re",
        "d"
      ],
      [
        "Ġp",
        "ra"
      ],
      [
        "Ġp",
        "assword"
      ],
      [
        "Ġp",
        "aar"
      ],
      [
        "Ġi",
        "ru"
      ],
      [
        "à®¯",
        "à®©"
      ],
      [
        "à®¯",
        "à®ª"
      ],
      [
        "à®¯",
        "à®°"
      ],
      [
        "à®¯",
        "à®±"
      ],
      [
        "à®¯",
        "à®Ļ"
      ],
      [
        "Ġs",
        "mal"
      ],
      [
        "Ġs",
        "pac"
      ],
      [
        "at",
        "es"
      ],
      [
        "à®³",
        "à®ķ"
      ],
      [
        "Ġà®İ",
        "à®ª"
      ],
      [
        "Ġà®İ",
        "à®£"
      ],
      [
        "Ġà®İ",
        "à®´"
      ],
      [
        "Ġpan",
        "radhu"
      ],
      [
        "or",
        "s"
      ],
      [
        "or",
        "y"
      ],
      [
        "Ġa",
        "ut"
      ],
      [
        "Ġa",
        "dhu"
      ],
      [
        "à®µ",
        "à®Ļ"
      ],
      [
        "Ġc",
        "ondition"
      ],
      [
        "in",
        "ed"
      ],
      [
        "de",
        "red"
      ],
      [
        "Ġre",
        "p"
      ],
      [
        "Ġre",
        "u"
      ],
      [
        "Ġre",
        "me"
      ],
      [
        "Ġre",
        "pe"
      ],
      [
        "Ġre",
        "cord"
      ],
      [
        "nt",
        "s"
      ],
      [
        "ct",
        "ure"
      ],
      [
        "Ġm",
        "ar"
      ],
      [
        "Ġm",
        "is"
      ],
      [
        "Ġm",
        "udi"
      ],
      [
        "Ġà®¤",
        "à®©"
      ],
      [
        "Ġf",
        "ra"
      ],
      [
        "Ġf",
        "ore"
      ],
      [
        "Ġf",
        "ont"
      ],
      [
        "Ġf",
        "rom"
      ],
      [
        "Ġf",
        "unction"
      ],
      [
        "Ġst",
        "ru"
      ],
      [
        "Ġst",
        "ate"
      ],
      [
        "ag",
        "ra"
      ],
      [
        "Ġw",
        "ri"
      ],
      [
        "Ġà®ĩ",
        "à®Ł"
      ],
      [
        "Ġà®ĩ",
        "à®¯à®Ļ"
      ],
      [
        "Ġex",
        "pect"
      ],
      [
        "Ġt",
        "as"
      ],
      [
        "Ġt",
        "wo"
      ],
      [
        "Ġà®µ",
        "à®°"
      ],
      [
        "um",
        "ber"
      ],
      [
        "Ġv",
        "a"
      ],
      [
        "Ġv",
        "en"
      ],
      [
        "Ġv",
        "ariable"
      ],
      [
        "me",
        "nt"
      ],
      [
        "ri",
        "e"
      ],
      [
        "ro",
        "u"
      ],
      [
        "ro",
        "du"
      ],
      [
        "Ġu",
        "pdate"
      ],
      [
        "Ġl",
        "im"
      ],
      [
        "ai",
        "yum"
      ],
      [
        "Ġà®ħ",
        "à®®"
      ],
      [
        "oo",
        "se"
      ],
      [
        "Ġà®ī",
        "à®°"
      ],
      [
        "Ġà®ī",
        "à®£"
      ],
      [
        "ĠA",
        "n"
      ],
      [
        "ĠA",
        "pp"
      ],
      [
        "ĠI",
        "t"
      ],
      [
        "Ġb",
        "e"
      ],
      [
        "Ġb",
        "ug"
      ],
      [
        "Ġh",
        "as"
      ],
      [
        "Ġh",
        "ist"
      ],
      [
        "Ġor",
        "gan"
      ],
      [
        "Ġor",
        "dered"
      ],
      [
        "Ġuse",
        "d"
      ],
      [
        "aa",
        "dhu"
      ],
      [
        "yo",
        "ut"
      ],
      [
        "cti",
        "ce"
      ],
      [
        "Ġfor",
        "ms"
      ],
      [
        "Ġn",
        "umber"
      ],
      [
        "Ġcol",
        "on"
      ],
      [
        "Ġcol",
        "ors"
      ],
      [
        "à®µà®°",
        "à®Ļ"
      ],
      [
        "Ġch",
        "eck"
      ],
      [
        "Ġpannum",
        "aa"
      ],
      [
        "Ġdi",
        "ctionary"
      ],
      [
        "ctiona",
        "l"
      ],
      [
        "Ġyou",
        "r"
      ],
      [
        "it",
        "t"
      ],
      [
        "ĠF",
        "or"
      ],
      [
        "Ġru",
        "les"
      ],
      [
        "Ġcont",
        "ain"
      ],
      [
        "Ġcont",
        "ex"
      ],
      [
        "Ġret",
        "rie"
      ],
      [
        "Ġwe",
        "b"
      ],
      [
        "Ġwh",
        "ole"
      ],
      [
        "Ġpar",
        "t"
      ],
      [
        "Ġpar",
        "agra"
      ],
      [
        "Ġint",
        "er"
      ],
      [
        "Ġint",
        "eger"
      ],
      [
        "Ġcom",
        "m"
      ],
      [
        "Ġcom",
        "pone"
      ],
      [
        "\"}",
        ";"
      ],
      [
        "Ġk",
        "ey"
      ],
      [
        "Ġpro",
        "cess"
      ],
      [
        "Ġsol",
        "lu"
      ],
      [
        "Ġà®İà®¤",
        "à®±"
      ],
      [
        "Ġwor",
        "k"
      ],
      [
        "Ġanupp",
        "a"
      ],
      [
        "Ġins",
        "pect"
      ],
      [
        "Ġlin",
        "ks"
      ],
      [
        "angu",
        "age"
      ],
      [
        "Ġchang",
        "e"
      ],
      [
        "Ġdef",
        "ined"
      ],
      [
        "Di",
        "ctionary"
      ],
      [
        "Ex",
        "plain"
      ],
      [
        "Int",
        "eger"
      ],
      [
        "We",
        "b"
      ],
      [
        "ading",
        "s"
      ],
      [
        "cri",
        "b"
      ],
      [
        "omat",
        "ic"
      ],
      [
        "ram",
        "m"
      ],
      [
        "Ġla",
        "yout"
      ],
      [
        "Ġle",
        "arn"
      ],
      [
        "à®¤à®³",
        "à®®"
      ],
      [
        "Ġpra",
        "ctice"
      ],
      [
        "Ġpaar",
        "u"
      ],
      [
        "Ġsmal",
        "l"
      ],
      [
        "Ġspac",
        "ing"
      ],
      [
        "Ġaut",
        "omatic"
      ],
      [
        "Ġreme",
        "mber"
      ],
      [
        "Ġrepe",
        "at"
      ],
      [
        "Ġrecord",
        "s"
      ],
      [
        "Ġmar",
        "k"
      ],
      [
        "Ġfra",
        "ctional"
      ],
      [
        "Ġfore",
        "ver"
      ],
      [
        "Ġfont",
        "s"
      ],
      [
        "Ġstru",
        "cture"
      ],
      [
        "Ġstate",
        "ment"
      ],
      [
        "Ġwri",
        "t"
      ],
      [
        "Ġexpect",
        "ed"
      ],
      [
        "Ġtas",
        "k"
      ],
      [
        "rodu",
        "ce"
      ],
      [
        "Ġlim",
        "it"
      ],
      [
        "Ġhist",
        "ory"
      ],
      [
        "Ġorgan",
        "iz"
      ],
      [
        "Ġcontex",
        "t"
      ],
      [
        "Ġparagra",
        "phs"
      ],
      [
        "Ġcompone",
        "nts"
      ],
      [
        "\"",
        "."
      ],
      [
        "B",
        "ug"
      ],
      [
        "C",
        "h"
      ],
      [
        "C",
        "o"
      ],
      [
        "C",
        "an"
      ],
      [
        "C",
        "hat"
      ],
      [
        "D",
        "es"
      ],
      [
        "E",
        "l"
      ],
      [
        "E",
        "rror"
      ],
      [
        "F",
        "ix"
      ],
      [
        "H",
        "e"
      ],
      [
        "H",
        "ow"
      ],
      [
        "I",
        "f"
      ],
      [
        "I",
        "s"
      ],
      [
        "L",
        "e"
      ],
      [
        "L",
        "oop"
      ],
      [
        "L",
        "anguage"
      ],
      [
        "M",
        "odel"
      ],
      [
        "N",
        "e"
      ],
      [
        "N",
        "or"
      ],
      [
        "O",
        "r"
      ],
      [
        "O",
        "ru"
      ],
      [
        "P",
        "le"
      ],
      [
        "P",
        "udhu"
      ],
      [
        "S",
        "h"
      ],
      [
        "S",
        "yntax"
      ],
      [
        "S",
        "oftware"
      ],
      [
        "U",
        "n"
      ],
      [
        "a",
        "la"
      ],
      [
        "a",
        "am"
      ],
      [
        "a",
        "ct"
      ],
      [
        "a",
        "ce"
      ],
      [
        "b",
        "o"
      ],
      [
        "c",
        "i"
      ],
      [
        "d",
        "d"
      ],
      [
        "d",
        "le"
      ],
      [
        "d",
        "ra"
      ],
      [
        "d",
        "ai"
      ],
      [
        "d",
        "ow"
      ],
      [
        "d",
        "aam"
      ],
      [
        "e",
        "t"
      ],
      [
        "e",
        "w"
      ],
      [
        "e",
        "an"
      ],
      [
        "e",
        "ct"
      ],
      [
        "e",
        "qu"
      ],
      [
        "f",
        "ter"
      ],
      [
        "f",
        "ace"
      ],
      [
        "g",
        "a"
      ],
      [
        "g",
        "ramm"
      ],
      [
        "h",
        "ave"
      ],
      [
        "h",
        "aiyum"
      ],
      [
        "i",
        "f"
      ],
      [
        "i",
        "re"
      ],
      [
        "i",
        "na"
      ],
      [
        "i",
        "ol"
      ],
      [
        "i",
        "ve"
      ],
      [
        "i",
        "dai"
      ],
      [
        "k",
        "es"
      ],
      [
        "k",
        "itt"
      ],
      [
        "l",
        "d"
      ],
      [
        "l",
        "at"
      ],
      [
        "l",
        "ate"
      ],
      [
        "l",
        "laam"
      ],
      [
        "l",
        "ic"
      ],
      [
        "n",
        "de"
      ],
      [
        "n",
        "ce"
      ],
      [
        "n",
        "du"
      ],
      [
        "o",
        "u"
      ],
      [
        "o",
        "ut"
      ],
      [
        "o",
        "ci"
      ],
      [
        "p",
        "on"
      ],
      [
        "p",
        "er"
      ],
      [
        "p",
        "les"
      ],
      [
        "r",
        "s"
      ],
      [
        "r",
        "ing"
      ],
      [
        "s",
        "t"
      ],
      [
        "s",
        "able"
      ],
      [
        "s",
        "crib"
      ],
      [
        "s",
        "oci"
      ],
      [
        "s",
        "pon"
      ],
      [
        "t",
        "ing"
      ],
      [
        "t",
        "ru"
      ],
      [
        "t",
        "ai"
      ],
      [
        "t",
        "udent"
      ],
      [
        "u",
        "la"
      ],
      [
        "u",
        "ra"
      ],
      [
        "u",
        "radhu"
      ],
      [
        "u",
        "pdate"
      ],
      [
        "u",
        "ch"
      ],
      [
        "v",
        "v"
      ],
      [
        "v",
        "an"
      ],
      [
        "v",
        "aa"
      ],
      [
        "v",
        "alu"
      ],
      [
        "v",
        "ed"
      ],
      [
        "v",
        "ula"
      ],
      [
        "y",
        "le"
      ],
      [
        "y",
        "st"
      ],
      [
        "y",
        "ura"
      ],
      [
        "°",
        "à®ķà®ļ"
      ],
      [
        "Ġ",
        "on"
      ],
      [
        "Ġ",
        "Code"
      ],
      [
        "Ġ",
        "Condition"
      ],
      [
        "Ġ",
        "List"
      ],
      [
        "Ġ",
        "Des"
      ],
      [
        "Ġ",
        "Error"
      ],
      [
        "Ġ",
        "He"
      ],
      [
        "Ġ",
        "Le"
      ],
      [
        "Ġ",
        "Ne"
      ],
      [
        "Ġ",
        "Pudhu"
      ],
      [
        "ħ",
        "à®ķà®°"
      ],
      [
        "ī",
        "à®Ļ"
      ],
      [
        "ı",
        "à®©"
      ],
      [
        "Ĵ",
        "à®°"
      ],
      [
        "ĵ",
        "à®°"
      ],
      [
        "à®",
        "ħà®ķà®°"
      ],
      [
        "à®",
        "īà®Ļ"
      ],
      [
        "à®",
        "Ĵà®°"
      ],
      [
        "à¯į",
        ";"
      ],
      [
        "Ġà®",
        "²"
      ],
      [
        "Ġà®",
        "°à®ķà®ļ"
      ],
      [
        "Ġà®",
        "ıà®©"
      ],
      [
        "Ġà®",
        "ĵà®°"
      ],
      [
        "à¯ģ",
        "?"
      ],
      [
        "à®ķ",
        "à®ķ"
      ],
      [
        "à®ķ",
        "à®Ł"
      ],
      [
        "à®ķ",
        "à®®"
      ],
      [
        "à®ķ",
        "à®µ"
      ],
      [
        "à®ķ",
        "à®£"
      ],
      [
        "à®¤",
        "à®ķ"
      ],
      [
        "à®¤",
        "à®¤"
      ],
      [
        "an",
        "dh"
      ],
      [
        "an",
        "dle"
      ],
      [
        "à®©",
        "à®ª"
      ],
      [
        "à®²",
        "à®¤"
      ],
      [
        "à®²",
        "à®©"
      ],
      [
        "à®²",
        "à®®"
      ],
      [
        "à®Ł",
        "à®Ļ"
      ],
      [
        "re",
        "n"
      ],
      [
        "re",
        "se"
      ],
      [
        "re",
        "ct"
      ],
      [
        "re",
        "ate"
      ],
      [
        "à®°",
        "à®®"
      ],
      [
        "à®°",
        "à®£"
      ],
      [
        "à®°",
        "à®ļ"
      ],
      [
        "à®°",
        "à®Ļ"
      ],
      [
        "Ġp",
        "at"
      ],
      [
        "Ġp",
        "ai"
      ],
      [
        "Ġp",
        "rese"
      ],
      [
        "à®±",
        "à®ķ"
      ],
      [
        "à®±",
        "à®®"
      ],
      [
        "à®±",
        "à®µ"
      ],
      [
        "Ġi",
        "llaam"
      ],
      [
        "na",
        "ry"
      ],
      [
        "à®®",
        "à®²"
      ],
      [
        "à®¯",
        "à®µà®±"
      ],
      [
        "Ġs",
        "o"
      ],
      [
        "Ġs",
        "am"
      ],
      [
        "Ġs",
        "im"
      ],
      [
        "Ġs",
        "ecre"
      ],
      [
        "Ġs",
        "uch"
      ],
      [
        "Ġs",
        "yst"
      ],
      [
        "at",
        "ch"
      ],
      [
        "Ġe",
        "lu"
      ],
      [
        "Ġe",
        "lla"
      ],
      [
        "Ġe",
        "ac"
      ],
      [
        "Ġe",
        "ver"
      ],
      [
        "à®³",
        "à®©"
      ],
      [
        "à®³",
        "à®²"
      ],
      [
        "à®³",
        "à®°à®®"
      ],
      [
        "Ġpan",
        "ra"
      ],
      [
        "Ġpan",
        "ren"
      ],
      [
        "or",
        "u"
      ],
      [
        "or",
        "rect"
      ],
      [
        "Ġa",
        "pp"
      ],
      [
        "Ġa",
        "dd"
      ],
      [
        "Ġa",
        "fter"
      ],
      [
        "Ġc",
        "hat"
      ],
      [
        "Ġc",
        "ase"
      ],
      [
        "Ġc",
        "reate"
      ],
      [
        "th",
        "er"
      ],
      [
        "Ġà®ª",
        "à®¤"
      ],
      [
        "Ġà®ª",
        "à®²"
      ],
      [
        "Ġà®ª",
        "à®£"
      ],
      [
        "in",
        "dow"
      ],
      [
        "Ġà®İà®©",
        "à®ª"
      ],
      [
        "es",
        "e"
      ],
      [
        "Ġre",
        "le"
      ],
      [
        "Ġre",
        "ce"
      ],
      [
        "Ġre",
        "qu"
      ],
      [
        "Ġre",
        "late"
      ],
      [
        "Ġre",
        "ndu"
      ],
      [
        "Ġre",
        "spon"
      ],
      [
        "Ġà®®",
        "à®Ł"
      ],
      [
        "nt",
        "ation"
      ],
      [
        "Ġm",
        "ut"
      ],
      [
        "Ġm",
        "igh"
      ],
      [
        "Ġm",
        "ean"
      ],
      [
        "Ġm",
        "atch"
      ],
      [
        "Ġà®¤",
        "à®²"
      ],
      [
        "Ġà®¤",
        "à®°"
      ],
      [
        "Ġà®¤",
        "à®°à®²"
      ],
      [
        "Ġà®¤",
        "à®µà®±"
      ],
      [
        "Ġf",
        "alse"
      ],
      [
        "à®£",
        "à®µà®°"
      ],
      [
        "er",
        "ate"
      ],
      [
        "à®ļ",
        "à®¤"
      ],
      [
        "à®ļ",
        "à®Ļ"
      ],
      [
        "Ġst",
        "ring"
      ],
      [
        "Ġst",
        "yle"
      ],
      [
        "Ġpann",
        "radhu"
      ],
      [
        "Ġpann",
        "itt"
      ],
      [
        "Ġw",
        "hat"
      ],
      [
        "Ġw",
        "indow"
      ],
      [
        "Ġà®ĩ",
        "à®¤"
      ],
      [
        "Ġà®ĩ",
        "à®Ļ"
      ],
      [
        "Ġth",
        "rou"
      ],
      [
        "Ġth",
        "ese"
      ],
      [
        "Ġà®µ",
        "à®Ł"
      ],
      [
        "Ġà®µ",
        "à®°à®²"
      ],
      [
        "Ġà®µ",
        "à®ļà®¤"
      ],
      [
        "Ġà®ļ",
        "à®°à®Ļ"
      ],
      [
        "al",
        "ly"
      ],
      [
        "yth",
        "ing"
      ],
      [
        "Ġv",
        "is"
      ],
      [
        "Ġv",
        "iol"
      ],
      [
        "Ġv",
        "andh"
      ],
      [
        "Ġin",
        "fere"
      ],
      [
        "Ġin",
        "ga"
      ],
      [
        "dh",
        "i"
      ],
      [
        "ro",
        "ls"
      ],
      [
        "Ġu",
        "sing"
      ],
      [
        "Ġu",
        "nde"
      ],
      [
        "ut",
        "ion"
      ],
      [
        "ut",
        "put"
      ],
      [
        "Ġl",
        "anguage"
      ],
      [
        "Ġà®ħ",
        "à®²"
      ],
      [
        "Ġà®ħ",
        "à®µ"
      ],
      [
        "Ġà®ħ",
        "à®£"
      ],
      [
        "Ġà®ħ",
        "à®µà®±"
      ],
      [
        "Ġà®ħ",
        "à®ķà®°"
      ],
      [
        "Ġà®ħ",
        "à®Łà®Ļ"
      ],
      [
        "à®´",
        "à®²"
      ],
      [
        "Ġà®ī",
        "à®±"
      ],
      [
        "Ġà®ķ",
        "à®±"
      ],
      [
        "ĠA",
        "dhu"
      ],
      [
        "ĠI",
        "f"
      ],
      [
        "ĠI",
        "lla"
      ],
      [
        "Ġb",
        "ut"
      ],
      [
        "Ġh",
        "ere"
      ],
      [
        "Ġh",
        "ave"
      ],
      [
        "Ġh",
        "andle"
      ],
      [
        "Ġen",
        "dra"
      ],
      [
        "Ġen",
        "kitt"
      ],
      [
        "Ġexam",
        "ples"
      ],
      [
        "di",
        "nary"
      ],
      [
        "Ġit",
        "s"
      ],
      [
        "Ġaag",
        "udhu"
      ],
      [
        "Ġaag",
        "aadhu"
      ],
      [
        "Ġaag",
        "ala"
      ],
      [
        "Ġaag",
        "uradhu"
      ],
      [
        "ction",
        "s"
      ],
      [
        "Ġfor",
        "mat"
      ],
      [
        "Ġn",
        "ew"
      ],
      [
        "ang",
        "i"
      ],
      [
        "Ġstore",
        "d"
      ],
      [
        "Ġà®ĩà®²",
        "à®ķ"
      ],
      [
        "Ġà®Ĵ",
        "à®©"
      ],
      [
        "Ġà®Ĵ",
        "à®µ"
      ],
      [
        "Ġà®Ĵ",
        "à®´"
      ],
      [
        "Ġch",
        "oose"
      ],
      [
        "Ġpannum",
        "bo"
      ],
      [
        "Ġdi",
        "d"
      ],
      [
        "ic",
        "h"
      ],
      [
        "ic",
        "ate"
      ],
      [
        "un",
        "icate"
      ],
      [
        "Ġde",
        "scrib"
      ],
      [
        "Ġde",
        "tai"
      ],
      [
        "Ġcont",
        "rols"
      ],
      [
        "Ġwh",
        "y"
      ],
      [
        "Ġwh",
        "en"
      ],
      [
        "Ġwh",
        "ich"
      ],
      [
        "Ġà®ķà®Ł",
        "à®µ"
      ],
      [
        "Sam",
        "e"
      ],
      [
        "en",
        "erate"
      ],
      [
        "ep",
        "roduce"
      ],
      [
        "Ġg",
        "rou"
      ],
      [
        "Ġg",
        "ramm"
      ],
      [
        "Ġg",
        "et"
      ],
      [
        "Ġg",
        "enerate"
      ],
      [
        "Ġo",
        "per"
      ],
      [
        "Ġo",
        "vv"
      ],
      [
        "Ġo",
        "ther"
      ],
      [
        "Ġo",
        "utput"
      ],
      [
        "à®İ",
        "à®²"
      ],
      [
        "Ġpanni",
        "na"
      ],
      [
        "Ġinc",
        "orrect"
      ],
      [
        "Ġhe",
        "adings"
      ],
      [
        "Ġk",
        "idai"
      ],
      [
        "Ġpro",
        "gramm"
      ],
      [
        "Ġsol",
        "ution"
      ],
      [
        "ation",
        "s"
      ],
      [
        "Ġas",
        "soci"
      ],
      [
        "Ġrefer",
        "s"
      ],
      [
        "Ġma",
        "y"
      ],
      [
        "Ġma",
        "ps"
      ],
      [
        "Ġma",
        "kes"
      ],
      [
        "Ġwor",
        "ks"
      ],
      [
        "Ġwith",
        "out"
      ],
      [
        "arn",
        "ing"
      ],
      [
        "Ġà®ĩà®°",
        "à®£"
      ],
      [
        "Ġanupp",
        "i"
      ],
      [
        "Ġins",
        "tru"
      ],
      [
        "Ġlin",
        "e"
      ],
      [
        "Ġà®īà®¤à®µ",
        "à®²"
      ],
      [
        "ĠIn",
        "put"
      ],
      [
        "Ġitem",
        "s"
      ],
      [
        "angu",
        "radhu"
      ],
      [
        "Ġchang",
        "ing"
      ],
      [
        "Ġdef",
        "ect"
      ],
      [
        "Ġrun",
        "s"
      ],
      [
        "Ġreturn",
        "s"
      ],
      [
        "Ġseparate",
        "ly"
      ],
      [
        "Do",
        "es"
      ],
      [
        "Dat",
        "a"
      ],
      [
        "Dat",
        "abase"
      ],
      [
        "ecre",
        "t"
      ],
      [
        "kk",
        "um"
      ],
      [
        "kk",
        "aadhu"
      ],
      [
        "ter",
        "n"
      ],
      [
        "ĠR",
        "equ"
      ],
      [
        "ĠR",
        "eproduce"
      ],
      [
        "ĠS",
        "tudent"
      ],
      [
        "ĠS",
        "ecret"
      ],
      [
        "Ġà®Ĩ",
        "à®ķ"
      ],
      [
        "Ġà®Ĩ",
        "à®°"
      ],
      [
        "Ġiru",
        "kku"
      ],
      [
        "Ġiru",
        "kkaadhu"
      ],
      [
        "Ġadhu",
        "la"
      ],
      [
        "Ġrep",
        "ly"
      ],
      [
        "Ġrep",
        "roduce"
      ],
      [
        "Ġreu",
        "se"
      ],
      [
        "Ġreu",
        "sable"
      ],
      [
        "Ġmis",
        "s"
      ],
      [
        "Ġmis",
        "sing"
      ],
      [
        "Ġmudi",
        "vula"
      ],
      [
        "Ġmudi",
        "yura"
      ],
      [
        "Ġva",
        "angi"
      ],
      [
        "Ġva",
        "anguradhu"
      ],
      [
        "Ġven",
        "um"
      ],
      [
        "Ġven",
        "daam"
      ],
      [
        "Ġupdate",
        "d"
      ],
      [
        "ĠApp",
        "o"
      ],
      [
        "Ġbe",
        "have"
      ],
      [
        "Ġcontain",
        "s"
      ],
      [
        "Ġretrie",
        "ve"
      ],
      [
        "Ġretrie",
        "ved"
      ],
      [
        "Ġinter",
        "act"
      ],
      [
        "Ġinter",
        "face"
      ],
      [
        "Ġcomm",
        "on"
      ],
      [
        "Ġcomm",
        "unicate"
      ],
      [
        "Ġkey",
        "s"
      ],
      [
        "Ġanuppa",
        "vaa"
      ],
      [
        "crib",
        "e"
      ],
      [
        "Ġautomatic",
        "ally"
      ],
      [
        "Ġrepeat",
        "s"
      ],
      [
        "Ġwrit",
        "e"
      ],
      [
        "Ġwrit",
        "es"
      ],
      [
        "Ġlimit",
        "ed"
      ],
      [
        "Ġorganiz",
        "es"
      ],
      [
        "Ġorganiz",
        "ed"
      ],
      [
        "Ch",
        "oose"
      ],
      [
        "Co",
        "ding"
      ],
      [
        "El",
        "lat"
      ],
      [
        "Is",
        "sue"
      ],
      [
        "Nor",
        "mal"
      ],
      [
        "Or",
        "dinary"
      ],
      [
        "Ple",
        "ase"
      ],
      [
        "Sh",
        "ou"
      ],
      [
        "ire",
        "s"
      ],
      [
        "lic",
        "ation"
      ],
      [
        "van",
        "t"
      ],
      [
        "valu",
        "e"
      ],
      [
        "Ġon",
        "ly"
      ],
      [
        "ĠCondition",
        "s"
      ],
      [
        "ĠDes",
        "cribe"
      ],
      [
        "ĠHe",
        "adings"
      ],
      [
        "ĠLe",
        "arning"
      ],
      [
        "ĠNe",
        "e"
      ],
      [
        "à®ķà®Ł",
        "à®µ"
      ],
      [
        "à®°à®£",
        "à®®"
      ],
      [
        "Ġpat",
        "tern"
      ],
      [
        "Ġpai",
        "rs"
      ],
      [
        "Ġprese",
        "ntation"
      ],
      [
        "Ġillaam",
        "a"
      ],
      [
        "Ġsam",
        "e"
      ],
      [
        "Ġsim",
        "ple"
      ],
      [
        "Ġsecre",
        "ts"
      ],
      [
        "Ġsyst",
        "em"
      ],
      [
        "Ġelu",
        "dhi"
      ],
      [
        "Ġella",
        "m"
      ],
      [
        "Ġeac",
        "h"
      ],
      [
        "Ġever",
        "ything"
      ],
      [
        "Ġapp",
        "lication"
      ],
      [
        "Ġchat",
        "ting"
      ],
      [
        "Ġrele",
        "vant"
      ],
      [
        "Ġrece",
        "ive"
      ],
      [
        "Ġrequ",
        "ires"
      ],
      [
        "Ġrelate",
        "d"
      ],
      [
        "Ġrespon",
        "se"
      ],
      [
        "Ġmut",
        "able"
      ],
      [
        "Ġmigh",
        "t"
      ],
      [
        "Ġmean",
        "s"
      ],
      [
        "Ġstring",
        "s"
      ],
      [
        "Ġpannitt",
        "u"
      ],
      [
        "Ġthrou",
        "gh"
      ],
      [
        "Ġvis",
        "it"
      ],
      [
        "Ġviol",
        "ates"
      ],
      [
        "Ġvandh",
        "a"
      ],
      [
        "Ġinfere",
        "nce"
      ],
      [
        "Ġunde",
        "r"
      ],
      [
        "ĠIlla",
        "ina"
      ],
      [
        "Ġenkitt",
        "a"
      ],
      [
        "Ġformat",
        "s"
      ],
      [
        "Ġpannumbo",
        "dhu"
      ],
      [
        "Ġdescrib",
        "es"
      ],
      [
        "Ġdetai",
        "ls"
      ],
      [
        "Ġgrou",
        "ps"
      ],
      [
        "Ġgramm",
        "ar"
      ],
      [
        "Ġoper",
        "ations"
      ],
      [
        "Ġovv",
        "oru"
      ],
      [
        "Ġincorrect",
        "ly"
      ],
      [
        "Ġkidai",
        "kkum"
      ],
      [
        "Ġprogramm",
        "ing"
      ],
      [
        "Ġassoci",
        "ates"
      ],
      [
        "Ġinstru",
        "ctions"
      ],
      [
        "ĠRequ",
        "est"
      ],
      [
        "Ellat",
        "haiyum"
      ],
      [
        "Shou",
        "ld"
      ]
    ]
  }
}